const unsigned char model_data[] = {
    0x1c, 0x00, 0x00, 0x00, 0x54, 0x46, 0x4c, 0x33, 0x14, 0x00, 0x20, 0x00, 0x1c,
    0x00, 0x18, 0x00, 0x14, 0x00, 0x10, 0x00, 0x0c, 0x00, 0x00, 0x00, 0x08, 0x00,
    0x04, 0x00, 0x14, 0x00, 0x00, 0x00, 0x1c, 0x00, 0x00, 0x00, 0x8c, 0x00, 0x00,
    0x00, 0xe4, 0x00, 0x00, 0x00, 0xa8, 0x05, 0x00, 0x00, 0xb8, 0x05, 0x00, 0x00,
    0x4c, 0x0b, 0x00, 0x00, 0x03, 0x00, 0x00, 0x00, 0x01, 0x00, 0x00, 0x00, 0x04,
    0x00, 0x00, 0x00, 0x0a, 0xfa, 0xff, 0xff, 0x0c, 0x00, 0x00, 0x00, 0x1c, 0x00,
    0x00, 0x00, 0x3c, 0x00, 0x00, 0x00, 0x0f, 0x00, 0x00, 0x00, 0x73, 0x65, 0x72,
    0x76, 0x69, 0x6e, 0x67, 0x5f, 0x64, 0x65, 0x66, 0x61, 0x75, 0x6c, 0x74, 0x00,
    0x01, 0x00, 0x00, 0x00, 0x04, 0x00, 0x00, 0x00, 0x90, 0xff, 0xff, 0xff, 0x0a,
    0x00, 0x00, 0x00, 0x04, 0x00, 0x00, 0x00, 0x08, 0x00, 0x00, 0x00, 0x6f, 0x75,
    0x74, 0x70, 0x75, 0x74, 0x5f, 0x30, 0x00, 0x00, 0x00, 0x00, 0x01, 0x00, 0x00,
    0x00, 0x04, 0x00, 0x00, 0x00, 0x02, 0xfb, 0xff, 0xff, 0x04, 0x00, 0x00, 0x00,
    0x0c, 0x00, 0x00, 0x00, 0x6b, 0x65, 0x72, 0x61, 0x73, 0x5f, 0x74, 0x65, 0x6e,
    0x73, 0x6f, 0x72, 0x00, 0x00, 0x00, 0x00, 0x02, 0x00, 0x00, 0x00, 0x34, 0x00,
    0x00, 0x00, 0x04, 0x00, 0x00, 0x00, 0xdc, 0xff, 0xff, 0xff, 0x0d, 0x00, 0x00,
    0x00, 0x04, 0x00, 0x00, 0x00, 0x13, 0x00, 0x00, 0x00, 0x43, 0x4f, 0x4e, 0x56,
    0x45, 0x52, 0x53, 0x49, 0x4f, 0x4e, 0x5f, 0x4d, 0x45, 0x54, 0x41, 0x44, 0x41,
    0x54, 0x41, 0x00, 0x08, 0x00, 0x0c, 0x00, 0x08, 0x00, 0x04, 0x00, 0x08, 0x00,
    0x00, 0x00, 0x0c, 0x00, 0x00, 0x00, 0x04, 0x00, 0x00, 0x00, 0x13, 0x00, 0x00,
    0x00, 0x6d, 0x69, 0x6e, 0x5f, 0x72, 0x75, 0x6e, 0x74, 0x69, 0x6d, 0x65, 0x5f,
    0x76, 0x65, 0x72, 0x73, 0x69, 0x6f, 0x6e, 0x00, 0x0e, 0x00, 0x00, 0x00, 0xc0,
    0x04, 0x00, 0x00, 0xb8, 0x04, 0x00, 0x00, 0x80, 0x04, 0x00, 0x00, 0xd8, 0x02,
    0x00, 0x00, 0xc4, 0x02, 0x00, 0x00, 0x8c, 0x02, 0x00, 0x00, 0x54, 0x02, 0x00,
    0x00, 0xb4, 0x00, 0x00, 0x00, 0xac, 0x00, 0x00, 0x00, 0xa4, 0x00, 0x00, 0x00,
    0x9c, 0x00, 0x00, 0x00, 0x94, 0x00, 0x00, 0x00, 0x74, 0x00, 0x00, 0x00, 0x04,
    0x00, 0x00, 0x00, 0xb6, 0xfb, 0xff, 0xff, 0x04, 0x00, 0x00, 0x00, 0x60, 0x00,
    0x00, 0x00, 0x10, 0x00, 0x00, 0x00, 0x00, 0x00, 0x00, 0x00, 0x08, 0x00, 0x0e,
    0x00, 0x08, 0x00, 0x04, 0x00, 0x08, 0x00, 0x00, 0x00, 0x10, 0x00, 0x00, 0x00,
    0x24, 0x00, 0x00, 0x00, 0x00, 0x00, 0x06, 0x00, 0x08, 0x00, 0x04, 0x00, 0x06,
    0x00, 0x00, 0x00, 0x04, 0x00, 0x00, 0x00, 0x00, 0x00, 0x00, 0x00, 0x0c, 0x00,
    0x18, 0x00, 0x14, 0x00, 0x10, 0x00, 0x0c, 0x00, 0x04, 0x00, 0x0c, 0x00, 0x00,
    0x00, 0x62, 0x92, 0x1d, 0x02, 0xbd, 0xee, 0x2c, 0x92, 0x02, 0x00, 0x00, 0x00,
    0x02, 0x00, 0x00, 0x00, 0x04, 0x00, 0x00, 0x00, 0x06, 0x00, 0x00, 0x00, 0x32,
    0x2e, 0x31, 0x39, 0x2e, 0x30, 0x00, 0x00, 0x22, 0xfc, 0xff, 0xff, 0x04, 0x00,
    0x00, 0x00, 0x10, 0x00, 0x00, 0x00, 0x31, 0x2e, 0x31, 0x34, 0x2e, 0x30, 0x00,
    0x00, 0x00, 0x00, 0x00, 0x00, 0x00, 0x00, 0x00, 0x00, 0x88, 0xf6, 0xff, 0xff,
    0x8c, 0xf6, 0xff, 0xff, 0x90, 0xf6, 0xff, 0xff, 0x94, 0xf6, 0xff, 0xff, 0x4e,
    0xfc, 0xff, 0xff, 0x04, 0x00, 0x00, 0x00, 0x90, 0x01, 0x00, 0x00, 0x1d, 0x22,
    0xc9, 0xbe, 0x22, 0xb7, 0xd8, 0xbd, 0x57, 0x8c, 0x7e, 0x3e, 0x39, 0xe7, 0x14,
    0xbf, 0xc6, 0x65, 0x66, 0xbe, 0x1e, 0x4e, 0x96, 0xbe, 0x3f, 0xd1, 0x8c, 0xbe,
    0x3e, 0xb3, 0xa6, 0x3d, 0x6f, 0xdd, 0x59, 0x3e, 0x76, 0xfb, 0x95, 0xbe, 0x91,
    0x9b, 0x9b, 0x3e, 0xfc, 0x1f, 0xb9, 0x3e, 0xad, 0x29, 0x87, 0x3e, 0x71, 0xf9,
    0x19, 0x3e, 0x5a, 0xb3, 0x4a, 0x3e, 0xd8, 0x31, 0x13, 0x3f, 0x74, 0xf6, 0x24,
    0x3f, 0x10, 0x74, 0x9c, 0xbd, 0x85, 0x26, 0xa6, 0xbe, 0xb1, 0xcb, 0x1b, 0xbd,
    0x97, 0x96, 0x1a, 0xbf, 0x54, 0xee, 0x95, 0xbd, 0x74, 0x02, 0x05, 0xbf, 0x1c,
    0x3d, 0x16, 0xbf, 0x30, 0xa9, 0xa4, 0xbe, 0xbf, 0x70, 0xc1, 0xbe, 0xa5, 0xab,
    0x53, 0xbe, 0x0d, 0xc9, 0x12, 0xbf, 0x10, 0xc5, 0xf6, 0xbe, 0xbd, 0x52, 0xd1,
    0x3e, 0xd2, 0x29, 0x04, 0x3d, 0xa3, 0xab, 0xb1, 0xbe, 0x63, 0xde, 0xcd, 0x3e,
    0xf4, 0xeb, 0x65, 0x3f, 0x7e, 0x7f, 0xc3, 0xbe, 0xb7, 0xbf, 0xd9, 0xbe, 0x61,
    0xa4, 0x7f, 0xbe, 0xd9, 0xaa, 0xa6, 0xbd, 0xa4, 0x0c, 0xe2, 0x3e, 0x9a, 0x55,
    0x2a, 0x3f, 0x1a, 0xfb, 0x16, 0x3f, 0xf5, 0x8f, 0x59, 0x3e, 0xe1, 0x0e, 0x03,
    0xbf, 0x7f, 0x87, 0xaa, 0xbe, 0xea, 0x21, 0x46, 0x3b, 0xcc, 0x2f, 0x05, 0xbf,
    0x97, 0x8f, 0x14, 0xbf, 0xde, 0xb8, 0x3d, 0xbc, 0x46, 0xb0, 0x29, 0x3f, 0x3c,
    0x56, 0x1e, 0xbc, 0x46, 0x4b, 0x23, 0x3e, 0x0b, 0x20, 0x9b, 0xbe, 0xd8, 0x29,
    0xaf, 0x3f, 0xa0, 0x9e, 0x0e, 0x3f, 0x61, 0x36, 0x31, 0x3f, 0x0b, 0xa5, 0x10,
    0xbd, 0xf1, 0x35, 0x51, 0x3f, 0xa6, 0xc9, 0xa1, 0x3d, 0xb0, 0x49, 0x4a, 0xbd,
    0xa6, 0xec, 0x35, 0x3e, 0xd0, 0xea, 0x61, 0xbd, 0xff, 0xb6, 0x85, 0x3e, 0x22,
    0x31, 0x2b, 0x3d, 0xb9, 0x5d, 0xfd, 0xbd, 0x4e, 0xb9, 0x4d, 0x3e, 0x21, 0x5f,
    0x6e, 0xbc, 0x57, 0x7f, 0x89, 0xbe, 0xd4, 0x1b, 0xa0, 0xbe, 0x09, 0x28, 0x36,
    0xbd, 0x46, 0x31, 0x3a, 0xbf, 0x6e, 0x80, 0xc9, 0x3e, 0x4e, 0x6f, 0x61, 0xbd,
    0xe1, 0x06, 0x0d, 0xbf, 0x09, 0x1e, 0xd2, 0xbe, 0xeb, 0xce, 0x21, 0x3f, 0xa9,
    0x94, 0x0c, 0x3f, 0xbf, 0x49, 0x7a, 0x3d, 0x46, 0x7c, 0x6a, 0xbc, 0x32, 0x8c,
    0xb4, 0xbe, 0xeb, 0xfd, 0xc0, 0xbc, 0x7a, 0x31, 0xcf, 0xbe, 0xcc, 0x57, 0x29,
    0x3f, 0x84, 0x21, 0xce, 0x3e, 0x01, 0x8a, 0x58, 0x3e, 0x78, 0xc2, 0xda, 0xbe,
    0x51, 0x0a, 0xea, 0xbe, 0xd5, 0x06, 0x9b, 0xbe, 0xea, 0x17, 0xa0, 0x3e, 0x9b,
    0x38, 0xfd, 0x3e, 0x9a, 0x1c, 0x13, 0xbe, 0x12, 0xda, 0xeb, 0xbe, 0x0a, 0xbe,
    0x98, 0xbc, 0x8d, 0x23, 0xb5, 0xbe, 0xfa, 0xff, 0x00, 0xbd, 0x1d, 0x9d, 0xee,
    0xbe, 0xcb, 0x1b, 0x34, 0xbf, 0xf3, 0xad, 0x46, 0xbe, 0xb3, 0xb5, 0x26, 0xbf,
    0x2b, 0xf7, 0x19, 0x3e, 0x72, 0x99, 0xcf, 0xbc, 0xea, 0xfd, 0xff, 0xff, 0x04,
    0x00, 0x00, 0x00, 0x28, 0x00, 0x00, 0x00, 0xcb, 0x78, 0x5a, 0xbe, 0x10, 0x38,
    0xea, 0x3e, 0x61, 0x41, 0x23, 0xbd, 0xf6, 0xa0, 0xa3, 0x3e, 0x6c, 0x2c, 0x2d,
    0xbe, 0xb5, 0x1b, 0x14, 0x3e, 0xb8, 0xb3, 0xe8, 0x3e, 0x65, 0x7a, 0xc3, 0x3d,
    0x4d, 0x11, 0x43, 0x3e, 0x5c, 0xde, 0xa4, 0xbd, 0x1e, 0xfe, 0xff, 0xff, 0x04,
    0x00, 0x00, 0x00, 0x28, 0x00, 0x00, 0x00, 0xe6, 0xbc, 0xd7, 0xbe, 0xdc, 0x11,
    0x8c, 0x3e, 0x00, 0x49, 0x87, 0x3e, 0xc2, 0xd6, 0xa9, 0x3e, 0x91, 0x5d, 0x96,
    0xbe, 0x37, 0x8a, 0xad, 0x3e, 0x91, 0x20, 0x85, 0xbd, 0xd9, 0x8e, 0xbb, 0x3e,
    0x17, 0xb0, 0x32, 0xbe, 0x4f, 0xf0, 0x85, 0x3e, 0x52, 0xfe, 0xff, 0xff, 0x04,
    0x00, 0x00, 0x00, 0x04, 0x00, 0x00, 0x00, 0x26, 0x5f, 0x7f, 0x3e, 0x62, 0xfe,
    0xff, 0xff, 0x04, 0x00, 0x00, 0x00, 0x90, 0x01, 0x00, 0x00, 0x8c, 0xe1, 0x12,
    0x3e, 0xd1, 0x2b, 0xcb, 0x3e, 0xd8, 0x22, 0xcf, 0x3d, 0xfc, 0x6e, 0x7b, 0x3e,
    0x60, 0x8e, 0x7d, 0xbf, 0x3b, 0x9a, 0xc9, 0x3e, 0x41, 0x5e, 0x0d, 0x3f, 0xf7,
    0x06, 0x8a, 0xbd, 0x45, 0xa9, 0xfd, 0xbe, 0x3f, 0xb1, 0x5a, 0xbe, 0x64, 0x7b,
    0x4a, 0xbf, 0xdb, 0x4b, 0x44, 0x3f, 0xcd, 0xb3, 0xe4, 0x3e, 0x59, 0x34, 0x1a,
    0xbf, 0xa2, 0x93, 0x92, 0x3d, 0xac, 0x06, 0xde, 0xbe, 0x55, 0x78, 0xf1, 0x3e,
    0x24, 0x21, 0xe4, 0xbe, 0xaa, 0x10, 0xb8, 0x3d, 0x2c, 0x19, 0xcd, 0xbe, 0x76,
    0xa7, 0xb1, 0xbd, 0x68, 0xc2, 0x04, 0x3f, 0x38, 0x7d, 0xaf, 0x3e, 0x49, 0xe5,
    0x25, 0x3a, 0xd8, 0x91, 0x0c, 0xbf, 0x65, 0xc8, 0x8f, 0xbe, 0xbf, 0xf7, 0xde,
    0xbc, 0x15, 0x59, 0x1b, 0xbf, 0xf3, 0x13, 0x49, 0xbf, 0x0f, 0x4d, 0x83, 0xbe,
    0x61, 0x27, 0x76, 0x3e, 0x81, 0xcf, 0x09, 0x3f, 0x6a, 0xdc, 0xcf, 0x3e, 0x00,
    0xc7, 0x08, 0x3e, 0x79, 0xf2, 0x06, 0xbf, 0x0f, 0xa2, 0xb6, 0x3d, 0x71, 0x08,
    0xd6, 0xbe, 0xb5, 0x8f, 0x4b, 0xbf, 0xb4, 0xc9, 0xa3, 0xbc, 0x6a, 0xf9, 0x86,
    0xbe, 0x2b, 0x0d, 0x1a, 0x3e, 0x5f, 0x89, 0x51, 0x3e, 0xd8, 0xc5, 0x14, 0x3f,
    0x30, 0x84, 0x14, 0xbe, 0x23, 0x8f, 0x01, 0x3f, 0x11, 0x30, 0x1c, 0x3f, 0x2d,
    0xbf, 0x0f, 0x3f, 0xff, 0xdd, 0x1f, 0x3e, 0x2d, 0x70, 0x3a, 0x3e, 0xe3, 0xdd,
    0x25, 0x3e, 0xa8, 0xa7, 0xa9, 0xbe, 0x18, 0x36, 0x68, 0x3e, 0xeb, 0x13, 0x4d,
    0xbf, 0xb6, 0xf2, 0xf9, 0x3e, 0xc6, 0x1c, 0x65, 0xbe, 0xe2, 0x17, 0x90, 0xbe,
    0x11, 0x33, 0xf1, 0x3e, 0x13, 0x83, 0x14, 0x3f, 0x0b, 0x45, 0xe5, 0x3e, 0x06,
    0x8f, 0x13, 0xbf, 0x87, 0x2d, 0x00, 0x3f, 0x52, 0x36, 0xab, 0xbe, 0x59, 0x7b,
    0x27, 0x3f, 0xbb, 0xd0, 0x39, 0x3f, 0x85, 0x0b, 0x94, 0x3e, 0x1f, 0x8e, 0x2a,
    0xbf, 0x2d, 0xec, 0xe4, 0x3d, 0x9c, 0x36, 0x4e, 0x3e, 0xbf, 0x34, 0x13, 0xbc,
    0x17, 0x54, 0x6d, 0x3e, 0x59, 0xce, 0x64, 0xbf, 0x2c, 0xa1, 0x0a, 0xbd, 0x41,
    0xef, 0x59, 0x3e, 0xe3, 0xfe, 0x03, 0x3e, 0x35, 0xfe, 0x10, 0xbf, 0xf7, 0xf0,
    0x4c, 0x3f, 0x5e, 0x5b, 0x4b, 0xbf, 0x78, 0x05, 0x1d, 0xbf, 0x49, 0xa3, 0x0e,
    0x3e, 0xe1, 0x17, 0x41, 0x3d, 0x20, 0xc3, 0x54, 0xbe, 0xee, 0xd6, 0x51, 0x3e,
    0xfd, 0x8e, 0x1b, 0x3f, 0x33, 0xb1, 0x73, 0x3e, 0xc9, 0xff, 0x26, 0x3f, 0xf5,
    0x6f, 0x00, 0x3e, 0x33, 0xdb, 0x0f, 0x3f, 0x75, 0x3c, 0x81, 0x3d, 0xa3, 0xd8,
    0x01, 0xbe, 0xbc, 0x94, 0x31, 0x3f, 0x82, 0x37, 0xe0, 0xbe, 0x6b, 0x10, 0x24,
    0x3f, 0x87, 0x7b, 0xda, 0x3e, 0x14, 0xa7, 0x82, 0xbe, 0x9e, 0x5e, 0xbe, 0x3c,
    0x3d, 0x69, 0x51, 0x3e, 0x79, 0x48, 0x45, 0x3e, 0xfe, 0x71, 0x91, 0x3e, 0x9a,
    0xcd, 0x75, 0xbd, 0x22, 0x89, 0xdb, 0xbe, 0x00, 0x00, 0x06, 0x00, 0x08, 0x00,
    0x04, 0x00, 0x06, 0x00, 0x00, 0x00, 0x04, 0x00, 0x00, 0x00, 0x28, 0x00, 0x00,
    0x00, 0x63, 0x75, 0x02, 0xbf, 0x93, 0xc8, 0x23, 0x3f, 0xd0, 0xb5, 0xae, 0x3f,
    0x8a, 0xd3, 0x47, 0x3f, 0x4d, 0x91, 0xe5, 0xbe, 0xe8, 0x46, 0x81, 0x3f, 0x01,
    0x32, 0x9a, 0xbe, 0x70, 0x03, 0xd7, 0x3f, 0x96, 0xc5, 0xaa, 0xbe, 0x16, 0xeb,
    0x43, 0x3f, 0x84, 0xfa, 0xff, 0xff, 0x88, 0xfa, 0xff, 0xff, 0x0f, 0x00, 0x00,
    0x00, 0x4d, 0x4c, 0x49, 0x52, 0x20, 0x43, 0x6f, 0x6e, 0x76, 0x65, 0x72, 0x74,
    0x65, 0x64, 0x2e, 0x00, 0x01, 0x00, 0x00, 0x00, 0x14, 0x00, 0x00, 0x00, 0x00,
    0x00, 0x0e, 0x00, 0x18, 0x00, 0x14, 0x00, 0x10, 0x00, 0x0c, 0x00, 0x08, 0x00,
    0x04, 0x00, 0x0e, 0x00, 0x00, 0x00, 0x14, 0x00, 0x00, 0x00, 0x1c, 0x00, 0x00,
    0x00, 0x08, 0x01, 0x00, 0x00, 0x0c, 0x01, 0x00, 0x00, 0x10, 0x01, 0x00, 0x00,
    0x04, 0x00, 0x00, 0x00, 0x6d, 0x61, 0x69, 0x6e, 0x00, 0x00, 0x00, 0x00, 0x04,
    0x00, 0x00, 0x00, 0xb0, 0x00, 0x00, 0x00, 0x68, 0x00, 0x00, 0x00, 0x34, 0x00,
    0x00, 0x00, 0x10, 0x00, 0x00, 0x00, 0x00, 0x00, 0x0a, 0x00, 0x10, 0x00, 0x0c,
    0x00, 0x08, 0x00, 0x04, 0x00, 0x0a, 0x00, 0x00, 0x00, 0x0c, 0x00, 0x00, 0x00,
    0x10, 0x00, 0x00, 0x00, 0x01, 0x00, 0x00, 0x00, 0x01, 0x00, 0x00, 0x00, 0x0a,
    0x00, 0x00, 0x00, 0x01, 0x00, 0x00, 0x00, 0x09, 0x00, 0x00, 0x00, 0x9a, 0xff,
    0xff, 0xff, 0x10, 0x00, 0x00, 0x00, 0x00, 0x00, 0x00, 0x08, 0x0c, 0x00, 0x00,
    0x00, 0x10, 0x00, 0x00, 0x00, 0x30, 0xfb, 0xff, 0xff, 0x01, 0x00, 0x00, 0x00,
    0x09, 0x00, 0x00, 0x00, 0x03, 0x00, 0x00, 0x00, 0x08, 0x00, 0x00, 0x00, 0x01,
    0x00, 0x00, 0x00, 0x03, 0x00, 0x00, 0x00, 0xca, 0xff, 0xff, 0xff, 0x10, 0x00,
    0x00, 0x00, 0x00, 0x00, 0x00, 0x08, 0x10, 0x00, 0x00, 0x00, 0x14, 0x00, 0x00,
    0x00, 0xba, 0xff, 0xff, 0xff, 0x00, 0x00, 0x00, 0x01, 0x01, 0x00, 0x00, 0x00,
    0x08, 0x00, 0x00, 0x00, 0x03, 0x00, 0x00, 0x00, 0x07, 0x00, 0x00, 0x00, 0x02,
    0x00, 0x00, 0x00, 0x04, 0x00, 0x00, 0x00, 0x00, 0x00, 0x0e, 0x00, 0x16, 0x00,
    0x00, 0x00, 0x10, 0x00, 0x0c, 0x00, 0x0b, 0x00, 0x04, 0x00, 0x0e, 0x00, 0x00,
    0x00, 0x18, 0x00, 0x00, 0x00, 0x00, 0x00, 0x00, 0x08, 0x18, 0x00, 0x00, 0x00,
    0x1c, 0x00, 0x00, 0x00, 0x00, 0x00, 0x06, 0x00, 0x08, 0x00, 0x07, 0x00, 0x06,
    0x00, 0x00, 0x00, 0x00, 0x00, 0x00, 0x01, 0x01, 0x00, 0x00, 0x00, 0x07, 0x00,
    0x00, 0x00, 0x03, 0x00, 0x00, 0x00, 0x00, 0x00, 0x00, 0x00, 0x06, 0x00, 0x00,
    0x00, 0x05, 0x00, 0x00, 0x00, 0x01, 0x00, 0x00, 0x00, 0x0a, 0x00, 0x00, 0x00,
    0x01, 0x00, 0x00, 0x00, 0x00, 0x00, 0x00, 0x00, 0x0b, 0x00, 0x00, 0x00, 0xf8,
    0x03, 0x00, 0x00, 0xa0, 0x03, 0x00, 0x00, 0x48, 0x03, 0x00, 0x00, 0x0c, 0x03,
    0x00, 0x00, 0xb0, 0x02, 0x00, 0x00, 0x58, 0x02, 0x00, 0x00, 0x0c, 0x02, 0x00,
    0x00, 0x78, 0x01, 0x00, 0x00, 0xdc, 0x00, 0x00, 0x00, 0x60, 0x00, 0x00, 0x00,
    0x04, 0x00, 0x00, 0x00, 0x4a, 0xfc, 0xff, 0xff, 0x00, 0x00, 0x00, 0x01, 0x14,
    0x00, 0x00, 0x00, 0x1c, 0x00, 0x00, 0x00, 0x1c, 0x00, 0x00, 0x00, 0x0b, 0x00,
    0x00, 0x00, 0x34, 0x00, 0x00, 0x00, 0x02, 0x00, 0x00, 0x00, 0xff, 0xff, 0xff,
    0xff, 0x01, 0x00, 0x00, 0x00, 0x34, 0xfc, 0xff, 0xff, 0x1b, 0x00, 0x00, 0x00,
    0x53, 0x74, 0x61, 0x74, 0x65, 0x66, 0x75, 0x6c, 0x50, 0x61, 0x72, 0x74, 0x69,
    0x74, 0x69, 0x6f, 0x6e, 0x65, 0x64, 0x43, 0x61, 0x6c, 0x6c, 0x5f, 0x31, 0x3a,
    0x30, 0x00, 0x02, 0x00, 0x00, 0x00, 0x01, 0x00, 0x00, 0x00, 0x01, 0x00, 0x00,
    0x00, 0xa2, 0xfc, 0xff, 0xff, 0x00, 0x00, 0x00, 0x01, 0x14, 0x00, 0x00, 0x00,
    0x1c, 0x00, 0x00, 0x00, 0x1c, 0x00, 0x00, 0x00, 0x0a, 0x00, 0x00, 0x00, 0x54,
    0x00, 0x00, 0x00, 0x02, 0x00, 0x00, 0x00, 0xff, 0xff, 0xff, 0xff, 0x01, 0x00,
    0x00, 0x00, 0x8c, 0xfc, 0xff, 0xff, 0x38, 0x00, 0x00, 0x00, 0x73, 0x65, 0x71,
    0x75, 0x65, 0x6e, 0x74, 0x69, 0x61, 0x6c, 0x5f, 0x31, 0x2f, 0x64, 0x65, 0x6e,
    0x73, 0x65, 0x5f, 0x32, 0x5f, 0x31, 0x2f, 0x4d, 0x61, 0x74, 0x4d, 0x75, 0x6c,
    0x3b, 0x73, 0x65, 0x71, 0x75, 0x65, 0x6e, 0x74, 0x69, 0x61, 0x6c, 0x5f, 0x31,
    0x2f, 0x64, 0x65, 0x6e, 0x73, 0x65, 0x5f, 0x32, 0x5f, 0x31, 0x2f, 0x41, 0x64,
    0x64, 0x00, 0x00, 0x00, 0x00, 0x02, 0x00, 0x00, 0x00, 0x01, 0x00, 0x00, 0x00,
    0x01, 0x00, 0x00, 0x00, 0x1a, 0xfd, 0xff, 0xff, 0x00, 0x00, 0x00, 0x01, 0x14,
    0x00, 0x00, 0x00, 0x1c, 0x00, 0x00, 0x00, 0x1c, 0x00, 0x00, 0x00, 0x09, 0x00,
    0x00, 0x00, 0x74, 0x00, 0x00, 0x00, 0x02, 0x00, 0x00, 0x00, 0xff, 0xff, 0xff,
    0xff, 0x0a, 0x00, 0x00, 0x00, 0x04, 0xfd, 0xff, 0xff, 0x58, 0x00, 0x00, 0x00,
    0x73, 0x65, 0x71, 0x75, 0x65, 0x6e, 0x74, 0x69, 0x61, 0x6c, 0x5f, 0x31, 0x2f,
    0x64, 0x65, 0x6e, 0x73, 0x65, 0x5f, 0x31, 0x5f, 0x32, 0x2f, 0x4d, 0x61, 0x74,
    0x4d, 0x75, 0x6c, 0x3b, 0x73, 0x65, 0x71, 0x75, 0x65, 0x6e, 0x74, 0x69, 0x61,
    0x6c, 0x5f, 0x31, 0x2f, 0x64, 0x65, 0x6e, 0x73, 0x65, 0x5f, 0x31, 0x5f, 0x32,
    0x2f, 0x52, 0x65, 0x6c, 0x75, 0x3b, 0x73, 0x65, 0x71, 0x75, 0x65, 0x6e, 0x74,
    0x69, 0x61, 0x6c, 0x5f, 0x31, 0x2f, 0x64, 0x65, 0x6e, 0x73, 0x65, 0x5f, 0x31,
    0x5f, 0x32, 0x2f, 0x42, 0x69, 0x61, 0x73, 0x41, 0x64, 0x64, 0x00, 0x00, 0x00,
    0x00, 0x02, 0x00, 0x00, 0x00, 0x01, 0x00, 0x00, 0x00, 0x0a, 0x00, 0x00, 0x00,
    0xb2, 0xfd, 0xff, 0xff, 0x00, 0x00, 0x00, 0x01, 0x14, 0x00, 0x00, 0x00, 0x1c,
    0x00, 0x00, 0x00, 0x1c, 0x00, 0x00, 0x00, 0x08, 0x00, 0x00, 0x00, 0x6c, 0x00,
    0x00, 0x00, 0x02, 0x00, 0x00, 0x00, 0xff, 0xff, 0xff, 0xff, 0x0a, 0x00, 0x00,
    0x00, 0x9c, 0xfd, 0xff, 0xff, 0x52, 0x00, 0x00, 0x00, 0x73, 0x65, 0x71, 0x75,
    0x65, 0x6e, 0x74, 0x69, 0x61, 0x6c, 0x5f, 0x31, 0x2f, 0x64, 0x65, 0x6e, 0x73,
    0x65, 0x5f, 0x31, 0x2f, 0x4d, 0x61, 0x74, 0x4d, 0x75, 0x6c, 0x3b, 0x73, 0x65,
    0x71, 0x75, 0x65, 0x6e, 0x74, 0x69, 0x61, 0x6c, 0x5f, 0x31, 0x2f, 0x64, 0x65,
    0x6e, 0x73, 0x65, 0x5f, 0x31, 0x2f, 0x52, 0x65, 0x6c, 0x75, 0x3b, 0x73, 0x65,
    0x71, 0x75, 0x65, 0x6e, 0x74, 0x69, 0x61, 0x6c, 0x5f, 0x31, 0x2f, 0x64, 0x65,
    0x6e, 0x73, 0x65, 0x5f, 0x31, 0x2f, 0x42, 0x69, 0x61, 0x73, 0x41, 0x64, 0x64,
    0x00, 0x00, 0x02, 0x00, 0x00, 0x00, 0x01, 0x00, 0x00, 0x00, 0x0a, 0x00, 0x00,
    0x00, 0x96, 0xfe, 0xff, 0xff, 0x00, 0x00, 0x00, 0x01, 0x10, 0x00, 0x00, 0x00,
    0x10, 0x00, 0x00, 0x00, 0x07, 0x00, 0x00, 0x00, 0x28, 0x00, 0x00, 0x00, 0x1c,
    0xfe, 0xff, 0xff, 0x1b, 0x00, 0x00, 0x00, 0x73, 0x65, 0x71, 0x75, 0x65, 0x6e,
    0x74, 0x69, 0x61, 0x6c, 0x5f, 0x31, 0x2f, 0x64, 0x65, 0x6e, 0x73, 0x65, 0x5f,
    0x31, 0x2f, 0x4d, 0x61, 0x74, 0x4d, 0x75, 0x6c, 0x00, 0x02, 0x00, 0x00, 0x00,
    0x0a, 0x00, 0x00, 0x00, 0x0a, 0x00, 0x00, 0x00, 0xde, 0xfe, 0xff, 0xff, 0x00,
    0x00, 0x00, 0x01, 0x10, 0x00, 0x00, 0x00, 0x10, 0x00, 0x00, 0x00, 0x06, 0x00,
    0x00, 0x00, 0x38, 0x00, 0x00, 0x00, 0x64, 0xfe, 0xff, 0xff, 0x2b, 0x00, 0x00,
    0x00, 0x73, 0x65, 0x71, 0x75, 0x65, 0x6e, 0x74, 0x69, 0x61, 0x6c, 0x5f, 0x31,
    0x2f, 0x64, 0x65, 0x6e, 0x73, 0x65, 0x5f, 0x31, 0x2f, 0x42, 0x69, 0x61, 0x73,
    0x41, 0x64, 0x64, 0x2f, 0x52, 0x65, 0x61, 0x64, 0x56, 0x61, 0x72, 0x69, 0x61,
    0x62, 0x6c, 0x65, 0x4f, 0x70, 0x00, 0x01, 0x00, 0x00, 0x00, 0x0a, 0x00, 0x00,
    0x00, 0x32, 0xff, 0xff, 0xff, 0x00, 0x00, 0x00, 0x01, 0x10, 0x00, 0x00, 0x00,
    0x10, 0x00, 0x00, 0x00, 0x05, 0x00, 0x00, 0x00, 0x3c, 0x00, 0x00, 0x00, 0xb8,
    0xfe, 0xff, 0xff, 0x2d, 0x00, 0x00, 0x00, 0x73, 0x65, 0x71, 0x75, 0x65, 0x6e,
    0x74, 0x69, 0x61, 0x6c, 0x5f, 0x31, 0x2f, 0x64, 0x65, 0x6e, 0x73, 0x65, 0x5f,
    0x31, 0x5f, 0x32, 0x2f, 0x42, 0x69, 0x61, 0x73, 0x41, 0x64, 0x64, 0x2f, 0x52,
    0x65, 0x61, 0x64, 0x56, 0x61, 0x72, 0x69, 0x61, 0x62, 0x6c, 0x65, 0x4f, 0x70,
    0x00, 0x00, 0x00, 0x01, 0x00, 0x00, 0x00, 0x0a, 0x00, 0x00, 0x00, 0x8a, 0xff,
    0xff, 0xff, 0x00, 0x00, 0x00, 0x01, 0x10, 0x00, 0x00, 0x00, 0x10, 0x00, 0x00,
    0x00, 0x04, 0x00, 0x00, 0x00, 0x1c, 0x00, 0x00, 0x00, 0x10, 0xff, 0xff, 0xff,
    0x0f, 0x00, 0x00, 0x00, 0x61, 0x72, 0x69, 0x74, 0x68, 0x2e, 0x63, 0x6f, 0x6e,
    0x73, 0x74, 0x61, 0x6e, 0x74, 0x32, 0x00, 0x01, 0x00, 0x00, 0x00, 0x01, 0x00,
    0x00, 0x00, 0xc2, 0xff, 0xff, 0xff, 0x00, 0x00, 0x00, 0x01, 0x10, 0x00, 0x00,
    0x00, 0x10, 0x00, 0x00, 0x00, 0x03, 0x00, 0x00, 0x00, 0x1c, 0x00, 0x00, 0x00,
    0x48, 0xff, 0xff, 0xff, 0x0f, 0x00, 0x00, 0x00, 0x61, 0x72, 0x69, 0x74, 0x68,
    0x2e, 0x63, 0x6f, 0x6e, 0x73, 0x74, 0x61, 0x6e, 0x74, 0x31, 0x00, 0x02, 0x00,
    0x00, 0x00, 0x0a, 0x00, 0x00, 0x00, 0x0a, 0x00, 0x00, 0x00, 0x00, 0x00, 0x16,
    0x00, 0x18, 0x00, 0x14, 0x00, 0x00, 0x00, 0x10, 0x00, 0x0c, 0x00, 0x08, 0x00,
    0x00, 0x00, 0x00, 0x00, 0x00, 0x00, 0x07, 0x00, 0x16, 0x00, 0x00, 0x00, 0x00,
    0x00, 0x00, 0x01, 0x10, 0x00, 0x00, 0x00, 0x10, 0x00, 0x00, 0x00, 0x02, 0x00,
    0x00, 0x00, 0x1c, 0x00, 0x00, 0x00, 0x9c, 0xff, 0xff, 0xff, 0x0e, 0x00, 0x00,
    0x00, 0x61, 0x72, 0x69, 0x74, 0x68, 0x2e, 0x63, 0x6f, 0x6e, 0x73, 0x74, 0x61,
    0x6e, 0x74, 0x00, 0x00, 0x02, 0x00, 0x00, 0x00, 0x01, 0x00, 0x00, 0x00, 0x0a,
    0x00, 0x00, 0x00, 0x00, 0x00, 0x16, 0x00, 0x1c, 0x00, 0x18, 0x00, 0x00, 0x00,
    0x14, 0x00, 0x10, 0x00, 0x0c, 0x00, 0x00, 0x00, 0x00, 0x00, 0x08, 0x00, 0x07,
    0x00, 0x16, 0x00, 0x00, 0x00, 0x00, 0x00, 0x00, 0x01, 0x14, 0x00, 0x00, 0x00,
    0x20, 0x00, 0x00, 0x00, 0x20, 0x00, 0x00, 0x00, 0x01, 0x00, 0x00, 0x00, 0x3c,
    0x00, 0x00, 0x00, 0x02, 0x00, 0x00, 0x00, 0xff, 0xff, 0xff, 0xff, 0x0a, 0x00,
    0x00, 0x00, 0x04, 0x00, 0x04, 0x00, 0x04, 0x00, 0x00, 0x00, 0x1e, 0x00, 0x00,
    0x00, 0x73, 0x65, 0x72, 0x76, 0x69, 0x6e, 0x67, 0x5f, 0x64, 0x65, 0x66, 0x61,
    0x75, 0x6c, 0x74, 0x5f, 0x6b, 0x65, 0x72, 0x61, 0x73, 0x5f, 0x74, 0x65, 0x6e,
    0x73, 0x6f, 0x72, 0x3a, 0x30, 0x00, 0x00, 0x02, 0x00, 0x00, 0x00, 0x01, 0x00,
    0x00, 0x00, 0x0a, 0x00, 0x00, 0x00, 0x02, 0x00, 0x00, 0x00, 0x20, 0x00, 0x00,
    0x00, 0x04, 0x00, 0x00, 0x00, 0xf4, 0xff, 0xff, 0xff, 0x0e, 0x00, 0x00, 0x00,
    0x00, 0x00, 0x00, 0x0e, 0x0c, 0x00, 0x0c, 0x00, 0x0b, 0x00, 0x00, 0x00, 0x00,
    0x00, 0x04, 0x00, 0x0c, 0x00, 0x00, 0x00, 0x09, 0x00, 0x00, 0x00, 0x00, 0x00,
    0x00, 0x09,
};
const int model_data_len = 2992;
